[PAD]
[UNK]
[CLS]
[SEP]
[MASK]
!
"
#
$
%
&
'
(
)
*
+
,
-
.
/
0
1
2
3
4
5
6
7
8
9
:
;
<
=
>
?
@
[
\
]
^
_
`
a
b
c
d
e
f
g
h
i
j
k
l
m
n
o
p
q
r
s
t
u
v
w
x
y
z
{
|
}
~
¡
¢
£
¥
¦
§
©
«
¬
®
°
±
²
³
´
µ
¶
·
¸
¹
º
»
¼
½
¾
¿
×
ß
à
á
â
ã
ä
å
æ
ç
è
é
ê
ë
ì
í
î
ï
ð
ñ
ò
ó
ô
õ
ö
÷
ø
ù
ú
û
ü
ý
þ
ÿ
ā
ă
ą
ć
č
đ
ė
ę
ě
ğ
ħ
ī
ĭ
ı
ĳ
ĵ
ķ
ĸ
ĺ
ļ
ľ
ł
ń
ō
ő
œ
ř
ś
ş
š
ţ
ū
ů
ų
ŵ
ŷ
ź
ż
ž
ƕ
ƪ
ƭ
ư
ƴ
ƶ
ƹ
ƻ
ƽ
ǧ
ǯ
ǵ
ǻ
ȥ
ȫ
ȷ
ɐ
ɑ
ə
ɛ
ɪ
ɫ
ɱ
ɸ
ɹ
ɽ
ɾ
ʃ
ʊ
ʒ
ʫ
ʮ
ʰ
ʱ
ʲ
ʷ
ʼ
ʽ
ʿ
ˈ
ː
˜
ˢ
˫
ˮ
˼
́
̇
̨
̫
̳
̵
̶
̸
ͨ
ͬ
ͯ
ͳ
ͷ
ͼ
΢
ά
έ
ή
ί
α
β
γ
δ
ε
η
θ
ι
κ
λ
μ
ν
ο
π
ρ
ς
σ
τ
υ
φ
χ
ω
ό
ϰ
ϲ
а
б
в
г
д
е
ж
з
и
й
к
л
м
н
о
п
р
с
т
у
ф
х
ц
ч
ш
щ
ъ
ы
ь
э
ю
я
ё
ђ
ѕ
і
њ
ќ
ў
ѡ
ѱ
ҡ
ү
ұ
ҳ
ҷ
ҹ
һ
ҽ
ӡ
ӥ
ө
ӭ
ӯ
ԥ
ԫ
ԭ
԰
ա
դ
ե
զ
թ
ղ
ս
վ
֮
ְ
ֱ
ֲ
ֳ
ִ
ַ
ָ
ֻ
ֽ
א
ב
ג
ד
ה
ו
ח
ט
י
כ
ל
ם
מ
נ
ס
ע
פ
צ
ק
ר
ש
ת
ׯ
״
׷
׼
׽
׾
أ
ا
ب
ة
ت
ج
ح
خ
د
ذ
ر
ز
س
ش
ص
ض
ط
ع
غ
ـ
ف
ق
ك
ل
م
ن
ه
و
ي
َ
ٱ
ٶ
ٷ
ک
ڰ
ڱ
ڲ
ڸ
ی
۰
۱
۲
۹
ۺ
۾
ۿ
ܹ
ܼ
޴
߱
ं
क
ज
त
द
न
प
ब
म
य
र
ल
व
स
ह
ा
ि
ी
ु
े
ो
्
க
்
౦
ก
ค
ง
ด
ท
น
บ
ม
ย
ร
ล
ว
อ
ะ
ั
า
ิ
เ
่
้
ა
ე
ი
ạ
ả
ế
‐
‑
–
—
―
‘
’
‚
“
”
„
†
•
…
′
″
›
€
™
←
↑
→
↓
−
≈
▓
▬
▷
►
●
★
♡
♥
♦
♭
❤
➤
⠀
ⱦ
、
。
《
》
「
」
【
】
あ
い
う
お
か
が
き
く
け
こ
さ
し
す
そ
た
だ
っ
て
で
と
ど
な
に
の
は
ま
め
も
や
よ
ら
り
る
れ
を
ん
ア
ィ
イ
ウ
エ
カ
キ
ク
グ
コ
サ
シ
ジ
ス
タ
ダ
チ
ッ
テ
ト
ド
ニ
ハ
バ
ビ
フ
ブ
プ
マ
ム
メ
ャ
ヤ
ラ
リ
ル
レ
ロ
ワ
ン
・
ー
一
七
万
三
上
下
不
世
业
东
两
个
中
为
主
么
之
乐
乖
九
书
买
了
事
二
于
五
交
京
人
什
今
仙
代
以
企
会
传
伯
位
体
佛
作
供
侠
価
信
像
儿
元
光
免
入
全
八
公
六
典
内
准
凤
凰
出
分
列
刘
创
利
到
制
前
力
加
动
包
化
区
十
半
单
南
博
历
原
及
双
发
口
句
另
台
史
号
司
各
合
吉
同
名
吧
员
和
品
哥
商
喜
器
四
围
国
图
在
地
场
址
坛
堂
士
复
多
大
天
太
头
奇
奖
女
好
妖
妹
姐
威
婆
子
字
学
安
官
定
宝
室
家
密
富
对
将
尊
小
尽
尾
局
展
山
岻
州
工
市
布
师
平
年
广
庄
库
度
庫
建
开
式
张
当
录
彩
影
律
心
必
快
性
总
情
惠
感
成
我
戦
所
手
技
抓
投
护
报
持
挂
排
掖
摇
播
改
救
数
文
料
新
方
无
日
时
明
星
是
晚
曾
最
月
有
期
本
机
杀
权
来
板
极
果
柱
榜
横
欲
正
段
每
比
民
水
江
法
波
泽
活
流
测
济
海
清
温
港
源
澳
濠
点
爆
片
版
牌
牛
物
特
状
狗
独
猛
玄
率
王
现
珠
理
生
用
电
画
白
百
的
皇
盒
盘
直
相
看
県
真
石
码
社
祖
神
禁
福
科
稳
空
站
童
第
等
算
管
精
系
線
红
级
纸
线
组
经
结
绝
统
绿
网
美
群
老
者
联
聚
肖
能
自
至
致
色
花
英
苹
葡
蓝
藏
虎
行
表
西
要
观
规
解
語
计
讯
记
论
诗
话
语
谈
谷
豪
貨
财
贴
费
资
赌
赔
赛
赢
走
超
跑
输
运
连
送
选
透
通
道
部
金
钱
铁
锋
错
长
闘
门
阳
限
雪
雷
霸
青
面
音
预
風
风
香
马
高
鬼
鱼
鹰
黄
黑
龙
챨
쿪
ﬁ
️
！
（
）
，
：
😀
😉
😢
🙂
##a
##b
##h
##e
##f
##n
##s
##i
##g
##o
##l
##d
##r
##u
##m
##p
##c
##t
##w
##2
##6
##k
##0
##x
##1
##y
##大
##仙
##六
##肖
##王
##5
##j
##q
##z
##ل
##م
##ه
##и
##а
##г
##н
##о
##з
##м
##ұ
##ʽ
##v
##港
##台
##珠
##4
##8
##3
##7
##í
##®
##9
##鱼
##玄
##机
##站
##á
##é
##à
##ʫ
##θ
##ȫ
##手
##杀
##波
##ç
##ͼ
##将
##免
##费
##图
##库
##口
##富
##心
##水
##论
##谈
##开
##门
##期
##平
##码
##️
##中
##持
##р
##ó
##е
##т
##й
##д
##б
##л
##ь
##ы
##ø
##ı
##×
##׷
##ļ
##è
##致
##彩
##姐
##奖
##结
##果
##€
##œ
##â
##к
##ि
##ल
##ा
##ч
##с
##ʲ
##ô
##ф
##ƭ
##ڸ
##̳
##в
##ʷ
##п
##щ
##ش
##ე
##™
##メ
##ン
##バ
##ー
##ا
##د
##话
##二
##藏
##宝
##必
##特
##ä
##的
##个
##数
##来
##多
##半
##料
##现
##场
##马
##网
##ッ
##プ
##ジ
##ו
##מ
##ר
##ˮ
##̸
##东
##▓
##对
##四
##经
##书
##ɾ
##ö
##红
##鹰
##坛
##š
##ā
##合
##解
##ć
##ɱ
##版
##苹
##单
##双
##द
##म
##य
##न
##я
##报
##һ
##´
##у
##֮
##ƪ
##ク
##ト
##の
##さ
##か
##ら
##创
##ह
##公
##¾
##׼
##α
##ς
##ß
##准
##ҷ
##ن
##ي
##ш
##ę
##ο
##ν
##ル
##サ
##イ
##佛
##祖
##人
##ż
##õ
##˼
##正
##板
##ﬁ
##小
##组
##ё
##ӥ
##コ
##财
##神
##赌
##č
##ю
##ع
##品
##于
##用
##ą
##і
##ü
##ׯ
##了
##要
##复
##民
##高
##跑
##狗
##头
##ԥ
##ϲ
##۲
##三
##尾
##牌
##成
##语
##ד
##י
##ם
##ु
##ी
##ʃ
##ː
##ת
##ő
##ر
##ֱ
##û
##ܹ
##ц
##年
##月
##曾
##道
##ү
##活
##不
##规
##律
##美
##ÿ
##զ
##色
##生
##表
##两
##ƴ
##أ
##天
##х
##京
##侠
##ა
##°
##ñ
##챨
##ٷ
##ٶ
##ĺ
##っ
##て
##も
##が
##あ
##り
##ま
##す
##赔
##ź
##算
##子
##→
##ƕ
##输
##尽
##光
##ア
##ロ
##ラ
##フ
##ַ
##ف
##ص
##ж
##日
##资
##ה
##ג
##א
##排
##æ
##פ
##ס
##分
##海
##ʱ
##ق
##ê
##星
##联
##β
##ú
##η
##ε
##快
##乐
##国
##奇
##ⱦ
##ש
##ק
##和
##运
##♥
##精
##一
##¢
##ş
##ȷ
##ʮ
##选
##八
##是
##法
##有
##性
##ע
##̇
##围
##万
##福
##方
##س
##ب
##و
##ة
##ã
##ł
##ś
##ѕ
##²
##凰
##ɫ
##连
##理
##工
##学
##ạ
##ְ
##江
##テ
##率
##句
##۰
##花
##会
##ţ
##ҹ
##豪
##管
##家
##业
##化
##ë
##ی
##ت
##列
##ɛ
##ח
##ב
##と
##に
##れ
##た
##を
##き
##վ
##レ
##ù
##点
##価
##お
##し
##龙
##贴
##ρ
##ι
##ά
##λ
##ʰ
##ֳ
##ӯ
##ǯ
##全
##老
##总
##्
##र
##ो
##以
##文
##展
##音
##©
##晚
##ʒ
##ƽ
##э
##包
##ս
##ğ
##世
##段
##ი
##霸
##九
##ͨ
##́
##े
##ं
##出
##ř
##诗
##买
##掖
##地
##元
##钱
##锋
##十
##虎
##权
##威
##ǵ
##˫
##长
##百
##片
##ў
##ђ
##њ
##԰
##ब
##利
##投
##ế
##州
##传
##真
##¹
##司
##堂
##禁
##相
##女
##盒
##童
##动
##物
##μ
##τ
##ί
##υ
##π
##غ
##挂
##之
##ъ
##դ
##ͬ
##な
##߱
##い
##ん
##历
##史
##ԭ
##ܼ
##ɑ
##ֻ
##源
##聚
##温
##限
##ō
##ă
##今
##ʼ
##好
##ė
##ͷ
##独
##̨
##ɐ
##ƶ
##δ
##χ
##έ
##स
##व
##员
##作
##为
##位
##ح
##英
##式
##£
##内
##部
##透
##쿪
##入
##ή
##˜
##建
##电
##器
##系
##播
##ì
##原
##主
##至
##ï
##布
##力
##企
##榜
##第
##名
##在
##体
##前
##新
##ʊ
##牛
##❤
##者
##ス
##で
##め
##く
##る
##こ
##ĭ
##ϰ
##救
##å
##同
##޴
##庄
##字
##五
##ķ
##ĳ
##ָ
##թ
##ů
##ž
##七
##ˈ
##ə
##儿
##上
##婆
##定
##ɹ
##事
##观
##ө
##ū
##送
##ȥ
##本
##ҳ
##エ
##ド
##¬
##º
##师
##信
##ƻ
##通
##情
##は
##線
##ò
##赛
##比
##下
##்
##绝
##خ
##ɽ
##ض
##ѡ
##ͳ
##及
##所
##测
##时
##ム
##猛
##۹
##哥
##能
##ビ
##マ
##号
##ả
##ร
##ะ
##เ
##ท
##ย
##÷
##ɪ
##נ
##î
##ī
##典
##ط
##ज
##だ
##ŵ
##ج
##ý
##¼
##¸
##泽
##社
##群
##ز
##最
##¦
##金
##ל
##า
##ก
##้
##ด
##ั
##น
##อ
##ง
##面
##ě
##爆
##画
##空
##欲
##ա
##ư
##ۿ
##直
##士
##自
##ك
##讯
##纸
##−
##シ
##ٱ
##ダ
##ń
##γ
##ω
##像
##密
##प
##त
##כ
##香
##ʿ
##ブ
##ウ
##や
##ワ
##影
##よ
##κ
##ڰ
##ɸ
##َ
##预
##到
##鬼
##谷
##ว
##ќ
##记
##录
##伯
##׽
##明
##ð
##么
##க
##我
##石
##▷
##交
##΢
##ե
##等
##供
##各
##۾
##け
##チ
##商
##ƹ
##ǧ
##吧
##ک
##đ
##蓝
##绿
##山
##发
##赢
##ħ
##ـ
##度
##บ
##่
##ט
##リ
##黑
##白
##市
##う
##ャ
##σ
##♭
##ハ
##ニ
##क
##流
##ԫ
##±
##ղ
##ǻ
##ŷ
##什
##ִ
##̶
##ų
##ذ
##盘
##清
##̫
##ล
##ิ
##ม
##ľ
##制
##区
##统
##计
##安
##无
##۱
##错
##南
##西
##址
##代
##ӡ
##ˢ
##当
##官
##ĵ
##★
##タ
##皇
##走
##カ
##ӭ
##½
##行
##ό
##凤
##妹
##横
##喜
##博
##极
##加
##φ
##ͯ
##̵
##改
##グ
##³
##ĸ
##室
##ڲ
##ѱ
##看
##柱
##黄
##ֽ
##摇
##ڱ
##ど
##感
##级
##太
##µ
##风
##þ
##铁
##护
##澳
##風
##状
##😢
##ค
##超
##ֲ
##↓
##每
##׾
##青
##雷
##吉
##局
##尊
##技
##抓
##线
##キ
##語
##ィ
##科
##ۺ
##另
##葡
##惠
##乖
##濠
##ҡ
##阳
##¥
##ヤ
##►
##貨
##➤
##济
##闘
##稳
##广
##●
##😀
##😉
##צ
##庫
##ҽ
##県
##⠀
##౦
##雪
##♡
##そ
##🙂
##岻
##张
##刘
##♦
##←
##▬
##妖
th
##er
##in
the
##es
##on
##at
##nd
##or
##en
##ou
##ing
##ed
##it
##an
##ar
##al
to
in
and
of
##is
##ic
##re
##om
##ion
##as
##le
##el
##ent
##il
you
##et
##st
##ct
##ro
for
re
is
on
##ve
##ur
##ot
##ly
be
##ut
##ch
wh
##ay
##ow
st
##id
##ol
##ad
##ce
it
##ig
##ith
that
##am
##ation
##ers
with
##ir
##se
an
al
##im
as
##th
##ver
pro
##ter
##ess
con
##ul
com
or
we
ch
sh
ha
se
##est
##ra
##oo
are
fr
this
##ill
##ge
de
##ere
ne
20
su
ex
##ck
at
##ab
##pp
##ak
your
##ate
##ment
##ist
##igh
##if
##ld
##iv
##us
he
not
##op
by
##em
was
##ant
from
##un
##ies
have
##ore
##ust
##ain
##ity
##os
##ive
can
##pe
201
##ort
##um
en
##art
##ie
do
ab
pr
##ome
wor
so
##ight
all
le
##ip
mo
pl
will
##all
##and
tr
##ally
##ard
##out
us
##ud
##ine
but
ad
##ould
##ell
me
##gh
##ber
##per
ar
comp
##ag
un
##ook
##ial
my
##ite
##age
cl
up
##ast
##our
lo
##ear
they
##ure
##ect
##pt
##qu
##ib
if
res
his
##ind
##ik
##ice
out
man
##ich
##ough
more
has
##able
##cc
##ack
##ions
##ide
co
##lo
##iz
one
##one
our
im
##ating
##ous
cont
am
no
go
##ake
##ated
tim
##ff
##ary
te
##ance
fe
##ood
their
##ach
new
about
##ound
qu
##ail
sp
##ish
##ap
##oun
##ans
app
##her
##ac
##ree
##orm
int
po
##so
##ile
there
##act
##ong
ser
##ther
who
any
which
inc
##ence
off
some
dis
when
work
##ia
mar
how
per
lik
##ely
get
##ame
##du
des
inter
ev
time
##ign
what
##ase
may
##ire
##og
##ations
##ical
##are
##au
##ry
sc
##ace
part
##ick
her
##ult
ag
kn
##own
##form
##ru
##ass
pe
##od
year
##ction
than
##reat
##ue
##ub
##pl
like
sa
##pr
other
also
##ount
##ays
spe
ph
them
just
ro
##ings
acc
pre
col
ever
##vel
over
##ents
comm
ind
gr
##ens
##ink
bec
rec
##ition
##ery
##00
been
##ond
##wn
##ian
##ord
##fer
its
would
em
had
##av
##ors
she
af
need
##gr
bu
##te
fir
serv
##nder
br
hel
##bs
##ph
were
peop
##ild
people
tw
##int
these
##port
most
##ory
dating
##ose
look
act
prov
19
##ual
make
##les
every
tra
##ade
##ater
##ang
into
bl
know
use
##itt
jo
car
##cial
##ep
ins
##ates
reg
##ause
##ious
only
add
read
cons
first
thr
see
dr
rel
high
##ful
##lic
##enc
bet
gu
well
down
##ied
##ning
fl
after
200
##lud
very
##iew
produ
cr
help
free
##line
under
##ks
##ments
pers
now
##ft
back
good
##ict
ve
sy
want
through
wr
##cr
str
##lect
find
stud
includ
best
##ath
##ci
ke
id
sm
many
##ons
bo
here
sch
##ices
don
inform
dec
because
##oll
inst
##ife
##der
##ise
then
art
mu
sec
##ject
##erm
great
supp
even
way
##urn
##ys
bus
fin
##hing
inv
rem
la
##ific
own
could
##elf
##ple
dif
exper
ac
##ting
right
mon
##day
two
home
gen
world
where
##ss
day
##ible
##we
online
##iss
##ics
##old
book
min
pres
##ert
##row
person
par
##oss
site
##ily
##ities
che
should
av
##oth
##iness
information
##ures
att
post
disc
med
aut
##olog
##fore
pol
bas
play
design
##als
mark
him
ass
##aking
##ract
##ved
compan
such
##xt
years
set
form
bel
##atch
##ular
##nds
##ower
sim
##air
##ational
##cess
##ty
aw
##anc
##oc
sub
##ange
much
start
##ility
##mber
##pect
cre
##ool
life
##ving
##get
eff
long
business
did
think
trans
##ble
while
##orn
##ug
call
loc
##ember
being
pub
##hip
10
take
does
prof
sur
##ience
##omet
too
show
vis
said
##ts
rev
again
##its
2018
##led
before
ear
adv
##ually
differ
those
requ
##ale
cent
count
##uring
op
made
##velop
blo
##ited
real
##alth
char
fam
##stem
##io
eng
progr
##other
met
det
sk
##gan
develop
wom
used
##ative
sing
let
cur
num
gener
end
system
##ps
market
product
each
wee
ple
ob
sl
love
really
##lish
dist
provid
imp
##ost
##ull
##ently
##ix
tech
found
def
list
##ession
school
##ives
eas
##ash
##ages
somet
##ivers
##ize
##az
fun
ret
intern
though
webs
##let
##ene
ma
top
##iting
##ric
pur
##ipt
##cept
dire
commun
state
war
cour
health
##ced
cle
##ines
file
##land
ed
cor
##end
ide
##load
sin
##ying
##ouse
last
##gg
##ards
val
##ves
##ather
##ites
##alk
service
avail
##ized
techn
##ollow
care
##iving
##ient
##olut
##ork
old
ll
el
ext
ty
##ier
program
follow
##ues
bro
##ior
child
lar
lead
sign
##ank
mem
del
inf
fil
place
short
##ne
2017
##akes
around
##ality
dat
without
lot
mus
lear
pa
ent
18
still
pay
company
##ness
available
##ever
interest
exam
frie
going
mod
##ames
##ween
exc
cust
plan
between
##ason
##eric
hand
both
using
chr
feel
##ins
##une
same
things
support
##ms
red
happ
point
##ically
ca
custom
different
##ways
bra
pat
descr
say
direct
services
class
var
few
week
gl
##ittle
##rol
##read
##ces
grou
##ner
##uss
##iver
##ont
##ets
run
americ
keep
little
phot
website
main
big
2016
##thing
gra
##amp
12
rep
must
month
##uly
process
##up
power
fact
mat
law
build
poss
open
please
import
women
view
since
##iqu
##ider
##iel
##ology
during
##ah
organ
small
##tern
offer
another
vide
##df
fu
2015
appro
term
cert
quest
conc
partic
put
sw
exp
##ody
##ten
hard
cost
bre
download
##bers
conf
##ention
##eng
iss
opt
##ark
effect
web
##itch
water
insur
come
##red
never
number
##ident
jan
colle
##els
family
something
##erg
head
always
##ds
pass
##oney
aff
oct
est
##ety
order
pdf
public
project
##ining
report
house
team
meet
resp
dep
check
expl
stand
##ists
looking
hum
sure
##ton
result
contin
##ural
including
di
far
better
based
why
##tain
rest
sal
nat
##arch
full
##self
three
light
sou
##ke
##ital
##ism
data
bar
proble
##irl
##earch
ste
auth
spec
research
es
##vember
second
curr
room
doc
2014
##ute
##ants
give
pop
men
##ling
net
feat
might
##con
got
##ruct
##ax
##ined
dem
##stand
##aut
15
today
##ired
oper
rece
##less
nor
##be
november
news
review
##ross
june
##ave
aug
11
experience
perform
ask
next
hist
game
special
##jo
insurance
however
money
air
proper
prot
level
sept
ref
##over
##ustr
leg
test
##ober
apr
##til
sex
##iption
ann
##man
##ress
equ
##ren
univers
christ
blog
less
within
access
allow
city
000
const
##ven
##reen
prom
cover
##tt
consider
win
march
##ately
elect
invest
gover
##ense
provide
conn
##raph
30
link
##duc
trad
important
group
october
hot
##ward
buy
##mm
##ock
emp
##vers
black
##ably
2013
dra
pract
##ories
god
quality
##uary
girl
##ency
govern
opp
hop
##ee
food
##ateg
present
july
##work
cal
##oot
september
feb
seem
prev
ess
learn
turn
area
##ipp
kind
personal
##ivid
belie
account
april
hour
making
days
educ
control
page
dece
cap
##sh
##rib
##par
##nding
cas
incre
dev
##gin
applic
able
addition
2012
search
single
august
beaut
pain
night
profession
rele
mill
comple
having
january
##ger
##uck
##ium
##ision
enter
pos
enjo
##ime
lat
100
cond
social
##icle
##ister
har
understand
##ll
products
adm
visit
##ified
wind
case
students
name
grow
##de
december
##ruary
tre
##ove
once
cou
##loy
chang
sever
mater
##ived
##inal
##por
##br
##ences
mil
ap
children
local
##ars
##ator
detail
ele
##book
fac
##ograph
author
##ised
##bo
polic
##ew
##iven
times
##omm
easy
february
bit
##ission
##ina
description
community
manage
working
##room
video
change
##ids
##ization
beh
##ased
##ising
record
##ively
cop
##ware
sat
priv
course
past
vi
stre
line
super
succ
ra
against
##ield
near
away
material
connect
##ann
port
##ips
14
cra
impro
music
##thers
certain
watch
individ
##iter
large
sites
sol
##ov
##ead
bed
teach
lim
thing
contact
email
members
anal
##press
content
body
ir
ge
##co
often
##ats
face
orig
##ability
hu
tem
non
pict
soft
##med
wall
ce
16
land
##ury
saf
click
##ured
##olution
mind
##ird
four
13
success
##ott
htt
##way
individual
##itions
eu
##enn
getting
##aim
along
occ
tell
##fect
##augh
2011
##osed
fre
event
##ng
talk
enjoy
activ
human
try
##ients
##ains
development
low
arr
protect
left
##ortun
25
##wh
toget
university
until
mult
mag
together
live
actually
story
offic
friends
##soci
bene
means
cred
government
##ique
national
##sw
side
sty
mid
amaz
relations
##ec
##hn
become
several
##ination
appear
price
##ern
2010
associ
##ential
##aster
possible
sn
##iful
maj
##att
mean
job
vol
age
##ley
called
white
pot
done
others
american
ey
mor
##ether
cook
perfect
key
quick
inde
mom
##ump
treat
##ged
country
##ane
create
shar
vers
wa
##ush
mot
meth
17
employ
et
series
clear
hol
enc
specific
typ
comput
##ering
move
##yc
writing
states
needs
repr
##ri
arch
date
share
cult
include
everything
##ribut
following
card
international
##ino
history
makes
##conom
summ
doing
##pend
enough
charact
coun
foc
purch
##ration
##acy
beautiful
benef
ant
polit
press
##iate
##ready
##ows
env
##ances
general
##ote
deal
publish
accord
south
already
##unch
##ills
pack
someone
ideas
dig
whether
##atic
##ians
econom
major
fut
john
engine
ident
sour
office
ep
lab
##ides
select
party
##ret
thanks
management
yet
moder
fav
particular
##ots
##rop
method
thought
upd
color
hy
##urs
sit
##ither
aud
199
below
least
games
internet
expect
didn
##orts
marketing
##ional
pick
common
camp
reason
hope
##vert
focus
paper
answ
friend
##ike
known
return
##oose
##itive
heart
glo
##ume
step
phys
wond
hal
policy
fur
professional
stor
repres
tool
clean
##by
##ming
mess
##ify
bad
##oice
sam
tot
##com
hold
young
24
discuss
example
sell
##cially
problem
item
relationship
refer
##ental
companies
text
##sel
cut
north
complet
sound
50
type
uk
##esh
respons
##ring
prob
address
reading
cam
regard
##iron
##ones
creat
center
came
##ok
##iod
##ulation
travel
comes
match
wood
##ergy
er
education
given
living
##ought
##aff
##ift
study
environ
mov
vari
doesn
##fact
miss
##inc
require
later
##ply
break
euro
##irc
##aces
manag
above
##ensive
##aps
technology
##ai
early
building
college
fall
future
##utes
value
opportun
ang
mach
begin
media
credit
ill
mer
##cks
2009
finan
comb
tour
started
##bal
among
tax
##ape
bring
ris
books
##ww
table
deliver
alm
##aken
whole
thank
ter
united
repl
##ries
self
##ler
##aw
agree
foot
simply
flo
season
fig
walk
##me
dom
claim
space
21
dou
amount
##urch
everyone
happen
question
anything
##uff
##rodu
questions
period
across
##yr
##aa
##ained
##cent
hours
invol
redu
compet
road
##ony
works
subject
gold
abs
word
mass
various
resour
##side
##pping
circ
according
##tend
##ength
##ream
secur
believe
deb
due
energy
##iously
went
dam
took
taking
results
##imate
chall
22
##ilt
features
rather
current
financial
pie
simple
pet
entire
article
park
strateg
##ron
issues
assist
phone
##ledge
kitch
offers
rad
##idence
##ters
##erv
##ief
vir
environment
sent
size
##ibr
modern
##ustry
strong
software
host
##itor
months
industry
jour
docu
hom
sho
install
yes
##ished
property
further
bill
http
medical
sugg
idea
##ibility
rock
complete
third
suggest
latest
##ilar
##artment
oh
image
church
network
anim
bank
##ral
admin
quite
##ney
##itten
##imes
##ball
represent
says
bal
recomm
##play
www
##ases
board
almost
hon
either
usually
training
range
bath
##fully
europe
won
fire
lang
kitchen
stay
distance
diff
ur
popular
wonder
print
##ges
related
upon
stat
2008
computer
five
bir
exist
code
film
##eral
nothing
provided
espe
discover
bab
defin
seen
extra
##ror
##illed
request
##li
action
security
especially
mob
million
collect
##res
probably
alth
furn
town
king
soon
oil
##gest
##pped
purp
style
terms
stop
natural
ens
function
improve
front
tit
although
sun
##son
##ench
user
rate
##ison
pret
sil
reach
recommend
president
model
star
cann
##ey
##oud
approach
##yn
hair
events
##go
##selves
accept
##ouch
##ada
green
ago
bur
fed
true
li
fast
autom
ho
problems
object
##astic
sen
##ners
trying
##icult
favor
##sc
stra
half
write
tur
##wards
experi
##ued
gre
communic
soci
provides
##izing
choose
##ands
##ided
written
guide
##uc
##pa
##ature
##uation
##ille
##oint
##gs
fa
particip
langu
similar
includes
sale
fit
speed
##gle
div
##ctor
##asing
manu
meas
remember
else
##ival
##gn
##ilities
chair
performance
sales
customers
##lus
ps
etc
lic
wel
##ered
knowledge
pretty
cell
west
designed
systems
original
continue
##ially
required
pan
happy
store
##umb
##rect
##osp
insp
letter
grad
kids
practice
rom
ach
matter
##come
##yl
words
weight
taken
##iday
necess
box
norm
close
consum
minutes
details
sle
comment
difficult
fail
medic
created
arm
yourself
rights
##rict
mr
character
instit
inside
ways
##ruction
bi
private
##den
manufact
application
##ablish
note
tar
##itted
field
emb
mic
##20
mount
song
science
excell
coll
40
woman
rich
struct
determ
establish
compar
global
##gar
##izes
anyone
init
issue
23
spir
infl
learning
hun
##mb
respect
##icles
##ators
screen
unique
jud
veh
squ
##istic
loss
hear
singles
phil
shop
brow
court
goo
member
wed
##cer
dest
sens
fair
section
county
bud
york
prop
photos
cheap
nice
lay
austr
##for
##oph
##ises
rul
wanted
ul
death
##fort
inn
staff
english
isn
told
hor
##ding
risk
##ification
girls
register
##ama
introdu
##aining
speak
legal
##dle
##ogn
brand
swe
coming
##used
seems
prim
##app
needed
student
club
##iture
areas
fish
##ored
posted
contract
collection
join
signific
##ule
likely
customer
##oid
commit
mail
takes
fore
save
track
six
changes
##aily
commer
##view
wish
instead
cele
clos
##empt
##eth
options
america
percent
essay
position
receive
##amm
political
images
2007
heav
describ
sometimes
san
cab
##ude
behind
ver
##ili
users
mobile
gar
russ
draw
source
##back
recogn
shows
daily
##antly
##18
crit
effective
higher
obs
advert
cannot
stock
achie
##ster
##ode
worth
ful
subm
##ted
send
cat
touch
##iple
leave
version
28
forward
added
##anced
##na
27
asked
tradition
##oring
base
plat
maybe
##xim
prem
shall
##itting
exact
cross
final
exec
running
currently
##ires
##ried
cool
prepar
equip
ready
pictures
treatment
earth
##to
additional
led
plus
celebr
ground
austral
total
built
suff
mal
department
pal
island
##ville
##ples
##where
held
##lex
amazing
regular
subs
##50
tal
##ese
trust
adult
except
##adem
furniture
analys
deg
throughout
prior
edition
##ables
standard
purchase
neg
##elt
maintain
00
##ament
##do
conv
digital
ball
deep
skin
##aced
wide
outside
resources
couple
##ological
round
den
##iam
libr
##erman
tele
items
language
google
##af
##hib
corpor
chat
imag
afric
recent
increase
interesting
##iction
cause
photograph
##ox
points
ult
block
extre
blood
fund
published
inte
ok
##ux
plans
apply
dream
lower
official
summer
drive
located
categ
master
street
##gu
received
##ference
##bert
display
meeting
26
perm
indic
##inary
capt
31
feed
198
##ceed
pred
excellent
via
rob
role
society
quot
looks
gard
express
equipment
mich
academ
blue
##enced
##fl
moment
lives
tv
##istration
bott
longer
spirit
finally
##verage
##face
recently
sett
##olutions
repair
##ob
##etic
imm
reviews
##ask
liter
##uit
##ution
weeks
32
christian
dark
##ees
##anch
opportunity
parts
conditions
sense
vict
impact
viol
announ
micro
scr
late
machine
jew
##erous
affect
cash
types
expert
seek
correct
fem
##ana
production
concern
##dom
son
becom
picture
##lim
##erc
brit
mention
##oura
condition
lost
qual
obtain
stuff
concept
ones
comfort
choice
##fr
dru
document
##wood
videos
photo
grand
##ych
analysis
hands
##ights
plant
movie
mother
mix
##use
##ctions
door
##oses
skills
##ging
leading
materials
fresh
sus
unc
jack
safe
fash
##ned
saw
secret
cand
subst
independ
nature
##of
jap
wal
middle
storage
##uth
##amb
regarding
culture
dav
potential
##ny
##pper
tools
integr
myself
trade
##eless
interested
##ker
itself
wear
promot
india
##amed
##ma
projects
themselves
attack
##ground
answer
je
path
lad
bul
##ibly
hit
attempt
parents
easily
corn
histor
japan
##eter
east
tips
##he
band
ensure
##ze
fat
consult
##cing
##aur
forum
limited
rid
29
log
stories
lif
##ension
immed
quickly
##atory
location
auto
##hood
morning
target
##wise
completely
baby
birth
dead
fashion
ah
release
owners
beach
solutions
commercial
mis
epis
listen
german
huge
##nal
wrong
altern
186
fix
platform
hosp
variety
prec
growth
pen
decor
tom
goes
playing
##cil
thinking
thous
device
canada
leaders
##ford
inj
activities
rout
##apt
welcome
##itation
eye
glass
##zy
safety
dan
relig
##put
windows
comments
favorite
exerc
doll
gets
programs
investig
fight
broad
##cul
mac
flow
police
##itely
dise
studies
psych
prices
leav
##ube
fant
princ
##rew
piece
hall
guy
separ
included
necessary
giving
perh
solution
##enty
players
drink
gall
wild
##nes
cry
central
prefer
federal
perhaps
former
chance
milit
appl
links
ther
advice
sold
china
providing
ability
##ags
century
alb
cast
gives
##rupt
physical
attention
countries
cases
eyes
##ivity
therefore
boy
hous
certainly
##ha
hotel
benefits
unf
##erve
floor
ten
acqu
##und
dress
197
##wor
bathroom
rates
absolut
load
##ram
director
decided
eth
sports
organization
ded
##ipping
##paper
##phone
##rown
scient
groups
smart
##hol
himself
assess
coach
james
minim
sched
civ
mort
rules
facebook
sleep
pages
career
esc
##atter
camer
surpr
##uses
##oon
option
60
born
##iet
clients
ban
award
paid
analy
##lier
costs
##bor
roll
fine
library
electric
coff
highly
tick
dog
##lin
appre
finish
du
average
batt
influ
und
vill
thus
supply
##iff
message
planning
became
sand
effic
wife
##eal
porn
execut
info
challeng
purpose
wonderful
##ously
mir
##ests
cru
emerg
fra
##enge
vehicle
exch
decision
levels
##body
##arm
opin
##chan
##oles
individuals
jes
attract
calif
economic
worked
hook
places
cabin
convers
father
adj
title
##iles
capital
definitely
casino
partners
worksh
##thern
regul
##str
strength
##oke
spring
neigh
considered
mc
fell
began
conference
notice
##atives
sem
chem
trip
brows
flor
allows
understanding
##ex
##ades
directly
encoura
##asons
force
ec
2006
##erved
estate
involved
behav
ii
ord
desp
indian
suit
websites
active
unit
applications
##elling
disp
avoid
developed
ital
nut
##lection
starting
multiple
eat
effects
contribut
mond
appreci
felt
##aign
council
##duct
wait
gas
attend
exactly
frequ
lond
launch
pool
previous
successful
##sequ
charge
traditional
basic
math
amazon
##10
aim
##iring
interact
copyr
organiz
fol
outdo
##ung
william
##aries
californ
sund
##ops
sort
creating
restaur
guys
##itter
##vey
entertain
payment
coffee
journal
region
org
pattern
##ancy
extrem
##arily
fab
towards
campaign
creative
##ffic
hell
farm
schools
associated
cit
progress
ut
gave
##mas
district
##ett
london
##bit
##ls
situation
500
dut
slow
california
graph
stage
##crib
complex
##ham
##ston
industr
nar
military
feature
prevent
hill
homes
copy
##dd
accom
appropr
firm
wasn
owner
##bon
garden
bey
association
fort
accur
income
electron
clin
mur
tried
hi
goal
civil
lots
imple
heard
advant
##idge
healthy
il
util
temper
##word
commission
methods
copyright
##iately
##illing
interview
posts
stru
truth
jesus
##band
los
loan
files
demand
proced
brought
protection
origin
##aming
hund
turned
annual
terr
significant
##orge
articles
hur
##arant
van
##unk
uses
##16
##aughter
moving
gay
##leg
growing
spend
transfer
largest
hundred
distribut
##uate
##apers
construction
nav
##onse
feeling
patients
repub
innov
generally
investment
##ipe
nation
truly
##mark
##ties
seo
hus
dry
##ores
craft
ip
mechan
helps
update
names
carry
brain
##ica
satur
consist
##board
pros
achieve
transport
##oos
##een
##ga
##itect
older
##istics
fully
australia
tast
chann
##agra
demon
##pression
faith
conduct
friday
implement
spr
requirements
european
looked
played
saying
released
occur
grade
trading
pm
numbers
essential
lack
architect
##aging
motor
guarant
straight
satis
ren
##gen
##rote
shown
##icated
aspect
##iment
difference
fear
effort
chap
monday
budget
double
frame
enh
knew
useful
race
fi
window
degree
finding
replace
reve
beginning
##ico
partner
grant
jobs
player
response
mel
french
figure
bon
##ida
normal
republic
alone
activity
tex
##ml
peace
##cking
meaning
beyond
episode
dro
diet
reports
##val
river
gift
##aged
length
nearly
##yal
responsible
afford
voice
##olf
committe
##isions
actual
privacy
washing
bay
##reg
positive
##cy
brown
transl
wid
depe
agreement
bedroom
christmas
compon
manual
optim
dim
cold
luck
sust
##vant
instruct
resist
entry
client
fest
##bur
server
70
challenge
football
diag
##istry
##esome
counter
laws
talking
viagra
wrote
forget
audio
syn
##irt
##ams
##iques
friendly
wes
##atically
british
tor
desk
doctor
novel
##cast
upload
##light
evidence
loved
warm
##30
damage
paint
pressure
cards
mart
der
fly
##ipped
guid
serious
models
advertising
##iced
##abor
train
driving
lord
shoot
aren
engineering
obv
sunday
spot
poor
##ches
sweet
35
##ara
heat
strategy
##ague
##enue
coverage
bow
##idents
produced
background
measure
offered
senior
##ba
vac
##aker
overall
wants
##ope
angel
exhib
##hold
profile
whe
stress
##ken
stick
https
rh
##ended
##isc
eval
##zz
196
##aught
thousands
mad
cars
exclus
independent
reli
cyc
##ros
assign
powerful
cancer
benefit
##ien
greater
##rap
extremely
immediately
traffic
advanced
respond
pu
whate
whose
##ban
##dy
spent
##encies
businesses
album
disease
sea
pleas
dang
outdoor
occas
din
whatever
established
statement
views
magaz
advent
princip
##ari
decide
surv
fan
##ilies
interior
topic
pc
vot
2005
contain
##ifying
36
pow
adjust
doub
emot
flu
primary
map
sto
confir
45
exchange
mission
offering
manager
structure
tree
##amic
experienced
committee
##pm
discount
feet
##ta
##arter
theory
##12
monitor
##porary
technical
continu
shopping
hospital
radio
arts
basis
spread
therap
##rael
otherwise
##asc
relationships
##acing
awesome
weekend
##outh
appar
marri
foreign
despite
setting
russian
paul
records
winter
80
kid
##ero
movies
ble
##ky
incred
trou
sharing
##list
particularly
earn
threat
##cript
bottom
produce
reflect
##mp
##airs
union
virt
rap
increasing
unless
animals
##gy
##reh
teaching
expected
saturday
gun
##44
##orrow
##umn
##gins
##osition
transform
cookies
families
decl
remo
##rant
changed
sav
pin
earlier
cup
##ened
selection
congr
nov
##ault
pray
profit
##da
##inated
haven
absolutely
##cra
david
station
##aint
agency
##fe
lines
surg
roo
movement
matt
mist
opportunities
appropriate
react
##bed
##gage
ideal
cart
les
##ael
loans
steel
reality
characters
illustr
licens
ath
##ancing
##yle
beauty
explain
ton
##atively
reasons
package
90
sad
surface
honest
communication
centre
weather
recover
##iny
forms
##rast
husband
spending
##round
guess
##inate
candid
delivery
divers
shot
buying
format
serve
apart
moved
presented
retail
operations
easier
maxim
population
##istr
gone
jun
ht
couldn
die
scen
designs
##ooth
##itude
reported
techniques
israel
contem
foundation
champ
strugg
classic
manufactur
muse
cath
##ette
climate
wedding
##olic
accident
calls
catch
constit
citiz
devices
surround
##cl
##ography
compreh
heavy
rank
##omb
pul
hang
seven
button
appoint
snow
ship
dur
##ocr
parties
usa
western
labor
##iling
experts
core
secure
direction
coast
jul
teen
##oms
bag
bear
contains
driver
increased
rent
resolution
colour
schol
blogg
anti
##time
texas
fif
##wide
chief
##pan
stone
remove
ign
reference
switch
solid
existing
sor
volun
kingdom
camera
cho
registered
##pective
sexual
lose
knows
harm
employees
compl
listed
boo
##ils
sets
##ym
element
minute
##aling
##ado
examples
magn
##ipl
selling
numerous
lock
##orial
##eness
sport
##iant
reduce
tro
drug
##uk
##inct
##roid
economy
span
wallpaper
ms
named
##inese
uns
##ago
female
scene
seeing
burn
reb
apple
advantage
drop
dyn
metal
ber
impl
leader
liber
sample
command
batter
theme
covered
allowed
teacher
##aked
helping
opinion
washington
##11
critical
rain
africa
died
wire
slight
##more
visual
memory
eight
mentioned
waiting
described
rand
eating
lake
nurs
connection
##erson
mp
breat
pull
status
dining
##inger
provider
patient
passion
answers
##olly
medicine
aid
disapp
keeping
holiday
browser
push
steps
conven
##22
marriage
battle
gather
##ses
cos
##vision
##antic
museum
thoughts
musc
ye
##ellig
##reek
ebook
asian
totally
changing
tend
discussion
highest
incor
robert
opening
dish
famous
happened
##ya
license
ice
sources
advance
prep
recip
190
standards
experiences
youth
suppl
rooms
learned
professionals
##mer
impress
##rd
kept
academic
claims
##place
artist
calcul
sky
##iration
##ologies
chinese
readers
ahead
freed
workers
exercise
rub
amp
writ
policies
volume
shipping
animal
fans
journey
chapter
##field
##iest
ast
cy
daughter
depend
selected
collabor
tut
finished
##ince
argu
miles
evening
remain
profess
hyd
##40
quant
kill
detect
##aaaa
followed
biggest
bes
sac
##ae
trump
lov
##house
remind
twitter
demonstr
ben
kick
unl
lou
executive
roof
attorn
elements
tag
goals
##ocol
requires
resume
tow
##itar
limit
nutr
completed
notes
prepared
premium
crus
fill
repe
mortgage
shared
factors
seeking
expand
dedicated
##lig
operating
updated
##iation
classes
datab
##frie
##craft
##ening
fantastic
chic
adop
crim
multi
##order
compared
rule
##isl
poker
helped
##pro
parent
administration
purposes
##works
sustain
##ounds
florida
##resp
applied
landsc
mine
helpful
vision
scale
determine
environmental
##using
frank
balance
lux
larger
rail
##cription
##ented
relevant
documents
##wr
ju
intellig
possibly
##des
married
dance
cultural
##force
gal
##lement
hd
attach
square
##aled
developing
gain
watching
organizations
michael
##ields
onto
operation
magazine
quarter
responsibility
##bb
diss
categories
alternative
wouldn
spons
colors
writer
channel
ham
authority
beat
manner
##ios
fuel
os
session
sugar
cro
##eds
engage
trial
aware
announced
dad
score
meant
crow
##que
plenty
billion
las
ended
##coming
generation
teams
dial
lawy
html
becomes
vent
topics
detailed
situ
corner
gh
##iding
strategies
clearly
cd
transact
adding
identify
##ald
properties
industrial
winning
circum
processing
league
da
officer
behavior
mental
##iger
minister
cleaning
comfortable
300
apps
edge
male
carbon
ads
pun
proceed
resident
quotes
amb
coup
placed
truck
england
##osure
appears
served
##ribute
introduction
##cient
##box
coo
bright
33
bought
seat
reader
owned
certific
registration
bond
jump
##ula
efforts
templ
becoming
editor
task
interp
mostly
practices
gro
##ato
compr
japanese
relax
occup
sud
gallery
jav
##iers
passed
##ulated
assistance
educational
iron
throw
showing
sounds
temperature
##icing
pieces
thom
thurs
agent
extend
dar
##ech
visitors
mex
##ona
##issions
##well
2004
##ulate
chemical
legisl
purs
resource
institut
flex
survey
artists
competition
institute
entertainment
cock
muslim
papers
##bour
teachers
##set
plastic
discl
##iled
pair
##13
atl
continued
cities
cloth
species
shape
spl
spect
audience
##ota
##respond
bod
toward
39
fle
pad
village
##cket
historical
correspond
soul
fo
##ij
##erse
##cel
intended
african
electronic
##isation
none
brother
##enses
brief
eventually
fitness
##ka
debt
mary
lovely
adapt
handle
consequ
majority
##80
2000
medium
covers
##arks
rating
flat
veget
index
stores
asking
bench
tues
##24
franc
freedom
happens
initial
##la
cloud
boys
assum
##vent
indeed
philos
##acity
construct
cells
##entially
concent
diagn
##iliate
mouth
sole
##izz
forg
conte
predict
actions
administr
asse
electr
leads
festival
values
typically
shel
royal
##14
scientific
desire
ran
##icious
caused
challenges
overs
deals
bound
poly
##icks
schedule
speaking
markets
airport
enterpr
panel
##osph
joy
songs
##17
corporate
ox
lights
restaurant
##icip
thursday
fees
restrict
dub
glad
goods
studio
smooth
unfortun
plants
##roll
34
instru
ol
##key
poll
##akers
joint
leaving
mi
upgr
lt
branch
leadership
justice
affiliate
kore
##fs
##my
initi
filled
##ternal
pra
guard
contemporary
ash
funds
sector
trail
##iliar
shap
functions
conflic
democr
1st
willing
##ption
domain
flash
valid
arrange
walking
tun
arg
##hips
appreciate
fal
separate
specifically
ara
anyway
2003
depending
##men
script
mainten
error
consumer
##oy
imagine
##edy
inqu
proud
advis
automatically
##estic
##soft
warrant
tuesday
mut
mountain
subscrib
connected
whom
religious
##ius
foods
accompl
maintenance
wil
wine
##gl
managed
mos
##oma
satisf
hero
2nd
ring
1861
##ca
##che
lady
alex
army
chart
depos
painting
estim
busy
75
explore
seemed
##cious
doubt
testing
cooking
aspects
##15
yout
fee
category
##gment
exciting
stars
ancient
99
conserv
updates
##friend
neighbor
communities
silver
ba
discovered
volunte
putting
mining
approxim
trib
##19
database
housing
kar
hers
practical
cabinet
##itz
remains
injury
sorry
veter
waste
excited
wednes
pure
##ared
sar
canad
enjoyed
##bsp
expensive
dinner
opened
inspired
surgery
##inating
dollars
au
visitor
division
##usion
hyp
presence
##encont
virgin
vit
forces
sym
therapy
config
accounts
##hab
writers
clim
rencont
spiritual
##anta
##lear
finance
yester
hug
rene
influence
tail
george
rapid
ire
destro
leaves
##fast
fuck
##pre
##itors
3rd
##rel
convention
closed
funny
crime
##25
ingr
organic
reliable
previously
visiting
##han
comprehensive
context
tea
chicago
wit
48
##uries
removed
performed
raised
negative
##care
smaller
##osis
diam
catal
focused
##ifts
transm
lin
showed
convert
valley
facilities
worry
philosoph
bb
properly
southern
election
##onic
cooper
##ен
lu
thor
alco
pregn
va
greatest
runs
egg
tough
messages
circumst
appeal
wednesday
yesterday
assemb
cu
searching
matters
01
fro
anth
monthly
citizens
france
television
exclusive
ride
liqu
##bi
weap
slightly
professor
##point
promote
bible
##abled
alcohol
laugh
starts
recommended
yell
##now
brings
emergency
rise
##sec
horse
rot
##ested
##off
bask
fer
linked
attorney
broken
encourage
ireland
##rees
##rete
schem
politics
##ania
voc
decisions
minimum
hundreds
doors
lunch
standing
continues
clinical
youtube
sister
guest
swim
##istan
residence
od
rang
##23
194
paying
shoes
taste
##cs
technologies
##ulous
internal
birthday
approximately
rat
designer
fabric
sudden
pil
residents
obama
germany
##ded
thread
affordable
tests
incorpor
courses
returned
symb
golf
knowing
pharm
max
##pet
sexy
37
ment
bitco
viewed
38
##uable
invent
pump
##oop
carol
effici
irish
atm
reserved
flav
revolution
schedul
ped
##ctors
##standing
om
shut
imper
facts
motiv
cris
creation
lifest
nuc
bang
##idden
##ception
enhance
##ek
excess
plug
filter
urban
fruit
italian
adults
##char
peter
vote
chairs
android
sitting
chick
ru
forest
killed
oblig
maximum
capacity
##irty
##vis
duty
occasion
bell
##ogue
##asm
vs
intel
combination
spanish
##hi
prime
microsoft
isl
planet
judge
##ship
##abilities
lighting
criminal
anywhere
settings
##rie
cream
familiar
tickets
##lor
facility
supposed
installation
belong
thick
##ita
sink
195
400
##gon
prote
rose
employment
failure
religion
penn
##rors
##eration
##ст
motion
efficient
realize
fixed
neck
considering
defense
mode
clicking
victim
frequently
##icians
americans
##urb
fourth
components
enable
importance
lie
##ini
submit
violence
##elled
personally
films
##unt
outl
quiet
worldwide
oce
minor
interests
##ata
committed
08
##otic
output
mont
wheel
ingred
wealth
guitar
favour
##ki
honor
##vin
breakfast
houses
infect
depth
instance
prepare
accurate
choos
literature
procedure
##osen
flight
suitable
prison
label
feedback
guarantee
providers
signs
letters
battery
##nel
processes
photography
tight
##fa
##nam
missing
##ev
forced
browse
plate
units
drivers
hello
09
bless
defend
announce
##erves
authors
canadian
ny
##osite
emph
kinds
assessment
dates
unfortunately
essays
mirror
##ario
congress
##ref
determined
##mon
protected
regional
tab
##bles
trouble
ray
milk
scott
choices
ram
##iences
proof
lan
cute
native
##lands
##ris
ourselves
##ensions
ta
##89
toy
brands
defined
holding
crypt
coord
evil
iphone
reput
possess
approved
breast
speech
decre
gear
tub
##ano
serving
vehicles
nom
llc
slot
supplies
trees
identity
orders
##repr
formed
supported
casual
##outs
locations
input
installed
##eline
##log
ages
reached
shower
latin
consumers
scholars
gent
joined
guests
elim
lived
##inations
presentation
##ommod
asia
##othing
calling
illeg
navig
sequ
##0s
##ena
deck
replacement
random
vary
##urally
menu
renew
##berg
jose
theat
gm
hey
permission
accommod
murder
##inter
prompt
reasonable
##umes
hat
lane
chain
causes
buildings
password
introduced
47
holy
meat
spin
charges
turns
simpl
incredible
feels
seconds
merch
##60
compare
complic
##burg
dv
##orter
equal
electrical
49
codes
expertise
yog
dogs
##oe
shock
blogs
catholic
##top
todd
weekly
fulf
surf
lam
poet
signed
tells
graduate
jewel
##elines
inspiration
manufacturing
55
##asy
##ingly
concerns
plays
factor
architecture
stun
##aves
smith
cum
howard
hearing
perman
rough
upper
pod
bringing
##head
appeared
colon
stated
lifestyle
alt
awards
normally
conversation
interpret
jer
accepted
193
##eries
ultimate
folks
rac
rare
posting
issued
##ste
crew
household
domin
##ager
certified
weak
terror
haw
principles
nin
##ole
mattress
reform
perspective
fields
nick
alter
entirely
loves
##liance
emphas
funding
##183
thomas
##ray
breath
mm
##erning
##ales
recru
##edia
##osh
quote
jim
sick
distinct
phen
##icient
millions
##aks
crazy
objects
instructions
affili
allowing
improved
propos
academy
hen
orient
shad
remark
que
licensed
boost
##down
northern
herself
sympt
rental
wet
##ialis
php
##going
youn
jewish
hate
trig
##encing
storm
witness
agents
trend
massage
seriously
##oration
##agan
confident
##но
destroy
hire
asp
##ishing
tan
mature
wis
lege
mini
mand
faster
wat
basically
walls
combined
##ester
##ola
##ifies
substant
cialis
wash
basket
##omy
carried
agric
appearance
victor
##eet
athlet
##lusion
advoc
valuable
draft
improvement
yellow
ven
worse
secretary
neighborhood
champions
machines
louis
younger
arab
##how
2001
##ifications
portion
##rate
44
pac
ack
##lock
measures
smok
##nbsp
2002
2019
##ander
concrete
technique
0183
香港
participants
bird
caught
##icate
retire
obviously
francis
agricult
kim
nic
external
bonus
##lete
circumstances
42
bitcoin
lit
rod
featured
##iveness
neu
##anda
summary
statistics
landscape
zero
paris
eastern
italy
ltd
directed
vacation
reduced
hydro
##pected
competitive
originally
distribution
begins
usual
magic
drugs
dangerous
raise
##ographic
iv
boat
false
tall
zone
massive
garage
certificate
symbol
##xx
##88
enth
constant
chosen
##equ
mainly
connolly
recovery
pill
tiny
moon
confidence
procedures
butter
clothes
arrived
mun
##ulty
supporting
strip
skill
comparison
##lets
extensive
mp3
kit
greek
clothing
stopped
##fol
##rain
constantly
communications
43
href
vo
revenue
##azz
carefully
adventure
powered
tip
route
cutting
luxury
##ras
##ingu
concerning
salt
bub
pitch
clar
acts
stream
##osphere
cale
pink
root
membership
definition
##ны
mast
##esis
scan
flood
proposed
institutions
hind
entrepr
workshop
fasc
abuse
gender
cere
gifts
blind
ministry
healthcare
diab
pleasure
##road
interface
australian
corporation
cin
mig
concerned
##iber
##uct
forth
everyday
generic
featuring
##greg
listing
recorded
taxes
sustainable
entered
hosting
enterprise
alle
telling
3d
nine
apartment
superior
##rad
65
##itate
##ura
export
depart
representative
russia
bridge
organized
obvious
monitoring
noticed
##emat
locks
remaining
founded
eb
grown
nur
##27
concert
recognized
myst
entreprene
era
##kn
lapt
angeles
imposs
enem
##ibilities
sed
flowers
bib
bike
bodies
ou
##essions
explained
gate
clock
effectively
##zen
##imately
##acle
critic
banks
virtual
decades
existence
delight
shares
wearing
luc
accessories
mile
acid
residential
ow
additionally
typical
obtained
thorough
##pass
##reed
saving
regardless
restaurants
lect
jon
fellow
fiction
aftern
default
payments
hidden
twenty
regulations
hardware
stret
digest
qualified
gamb
##kes
##asks
elig
##town
trends
officers
lawyer
phr
picked
acknow
neither
bigger
nutrition
##ella
employee
returns
rencontre
##ef
orange
twice
failed
innovative
##ль
mexico
sides
tube
46
##uts
arms
bob
wik
##lers
spok
liked
ocean
reject
phase
geor
patterns
dealing
roman
##ora
##ician
formal
##ulations
##osing
ax
na
##water
fishing
confirm
forex
regularly
ko
recipe
cycle
edit
purchased
tables
##night
humans
##arian
attribut
martin
ingredients
raw
##bre
planned
investigation
resol
contained
statements
explan
campus
drawing
choosing
border
##yth
##iat
meal
ticket
scar
chris
hung
leather
whenever
suggested
pig
receiving
##iors
aber
recipes
moments
counsel
tank
icon
tradem
##ounter
dram
authent
95
rein
recon
##urr
instant
conflict
eleg
url
template
rug
vice
##ints
delivered
significantly
rig
##tending
officials
component
nuclear
4th
mike
##fit
directory
nations
##ро
pour
row
programme
horn
referred
turning
closer
##icial
cham
##usi
persons
thin
richard
nfl
##pal
subsequ
illegal
pip
dear
conscious
presents
holly
golden
##bl
tenn
chi
##umin
contest
mcc
##igan
ft
##70
##agram
genu
reply
liquid
solar
mixed
az
ends
vast
anx
programming
64
relatively
grace
domestic
zeal
ly
soph
saved
lists
represents
intellect
nich
##sp
contrast
newslet
heaven
outstanding
treated
ladies
bh
bol
consent
encounter
##21
personals
aircraft
vital
##icit
extended
##ication
participate
symptoms
##yan
kr
tiss
##eper
defe
##uits
##kin
inch
networks
refr
managing
unlike
calend
reward
##inder
##ears
identified
shift
styles
ken
describe
##eed
##28
launched
ced
prize
sight
compens
experim
faculty
sau
##ii
keeps
archives
figures
crusher
##ja
##ns
classroom
tomorrow
##iform
transition
breaking
##ighter
apparently
fold
accompan
##life
operate
capable
lucky
sir
publication
reporting
##elly
stim
agencies
candidates
afternoon
pic
150
treas
electricity
nursing
chocol
trick
differences
##26
sending
perfectly
impossible
manufacturers
cow
taught
blow
falls
intelligence
##rick
##raw
lee
displayed
coal
noted
abst
romance
guidelines
03
assistant
cabinets
##oty
brill
enthusi
tags
##ici
lessons
buff
dont
conver
##ikes
manufacturer
dust
beer
empt
##iance
height
compat
reprodu
##ructure
por
##77
hack
likes
remote
##ersey
intr
scot
sheet
assets
##zil
resort
ic
winner
subjects
negot
dreams
egy
dollar
attractive
gorge
discussed
steph
jeff
##bing
narr
jewelry
bush
musical
##what
ohio
performing
##mond
##99
agreed
##ascript
lets
sacr
05
53
queen
susp
##uing
driven
holds
tutorial
##gas
forever
##ycle
diamond
positions
reserve
layout
javascript
column
jersey
infrast
happening
situations
07
##roph
charl
follows
naturally
virginia
egypt
##ading
phenom
dc
crisis
powers
daniel
wooden
parking
losing
muscle
memor
informed
stands
concepts
recognize
bread
ga
crack
##gers
expression
unable
smile
wholes
integrated
twin
delicious
supports
photographs
fighting
##isters
expenses
hugh
savings
yeah
##no
joe
cher
##asts
accounting
divor
acting
##onym
##tle
##aded
steam
researchers
commitment
surprise
picks
wireless
shr
worst
instagram
explo
investors
slowly
kiss
aqu
##ems
awar
profiles
##orders
promise
suc
lev
##iking
innovation
##gor
okay
observ
evol
realized
##mes
involve
##uel
##making
warning
transportation
puss
rust
##ails
underst
collected
fox
##oned
rear
harv
degrees
forums
retirement
##inding
generate
ordered
hurt
coupon
##tic
##odes
gentle
grab
lesson
printed
shooting
philosophy
forec
stain
recording
awareness
till
##gia
instruction
liability
immig
bio
gaming
highlight
##attle
speaker
captain
800
dun
##born
##teen
besides
##lying
contents
publishing
talent
widely
##itory
remov
emotional
cosm
param
objective
##ingers
##ght
crash
examination
##rit
##ican
fairly
surrounding
##under
##ilst
experiment
loving
indo
##iar
checking
scientists
borrow
attached
upcoming
entr
extreme
accuracy
##mith
##west
##idays
emails
stretch
continuing
jur
mg
##amin
##aph
satisfact
finds
##case
##king
enlist
ultimately
affected
brew
institution
mathemat
protein
wow
therm
##any
columb
relative
steve
pear
##etime
ups
aberde
enforce
atmosphere
supplement
prospect
argument
naked
habit
kenn
##bar
##za
firms
decent
chicken
##ushing
brazil
opinions
yoga
stunning
aer
sessions
##ки
producing
escape
succeed
rou
opposite
##hire
extract
attacks
aberdeen
##hs
somewhat
heads
birds
debate
historic
##ogen
facil
##sis
trained
inner
successfully
vin
believed
250
suggestions
printing
disappoint
yours
infrastructure
withd
strategic
literally
assume
newspaper
##eets
guidance
finger
tap
prove
##nic
extent
surprised
cedar
whilst
alert
##raction
commonly
chocolate
jac
yard
extension
colorado
nc
aside
eld
wars
signal
accessible
grew
##ет
hyper
applicable
authorities
tu
spain
somewhere
listening
jam
##inent
patch
wra
charles
feelings
laptop
gorgeous
rack
##nders
incom
##dr
hoping
facing
hopefully
embod
revealed
efficiency
specialist
gradu
crucial
bowl
primarily
vint
##90
##inois
forgot
tasks
##bu
brush
mustered
submitted
narrow
haz
regions
ease
lift
##achel
relief
immediate
lesb
dynamic
##unction
challenging
maps
shed
everywhere
delay
passing
fantasy
04
personality
pleased
labour
possibility
anticip
zealand
iran
respective
shirt
##while
54
##33
##asp
resc
##anged
##rapher
subscribe
hip
rab
frustr
noise
##apore
greatly
tonight
currency
legs
illinois
struggle
suddenly
johnson
oak
tracks
strict
transaction
##abs
##etics
##upid
purchasing
1999
matches
legend
bookmark
missed
alph
unw
recall
destination
wave
##atures
##ads
sciences
romantic
islands
dick
vul
##illy
affairs
physics
synth
##eas
exceed
heating
parli
mah
##bra
disability
singapore
philipp
evaluation
theatre
diy
buyers
vend
elev
instrument
pix
pocket
##ographer
assembly
calendar
bags
evolution
##itage
canc
hosted
expressed
##away
strange
trigger
dental
joseph
hr
lies
##sters
covering
mt
spaces
factory
drinking
diverse
usage
empire
minimal
bru
##anna
kh
##rage
entit
graphics
framework
cater
proph
solve
cake
##here
managers
si
spa
soil
candidate
jones
##ер
grat
generated
exhibition
##known
fred
flag
broadcast
reputation
##rum
incident
conducted
hollywood
supre
conclud
explaining
functional
divid
rum
##zing
podcast
по
doctors
lean
homework
vintage
vess
vibr
tested
##comes
mit
##iser
reduction
scheme
56
lyn
exception
carolina
wise
grass
alive
##illa
limits
parliament
bid
rar
amend
appointment
favourite
improving
creates
wordpress
translation
##aaaaaaaa
accomplish
intellectual
##sa
##ih
moves
overl
trav
incredibly
##论坛
visited
charged
hotels
turkey
fifth
lol
##win
ford
hunting
celebrate
cant
racing
##the
sew
##emon
makeup
increases
##rets
renov
gon
rush
wer
shots
versions
approaches
gym
tact
##worth
industries
aust
pak
##ati
##stream
expans
exposure
depends
mood
##ala
boston
britain
hub
##iety
stuck
memories
kil
##enth
##aints
hospit
lip
##eding
joining
##gged
adopt
600
liver
##55
teeth
permanent
##uous
##haust
resistance
##ares
uniform
preferred
convenient
pussy
76
##inity
##etch
shell
consists
thousand
heritage
##alle
##umps
##ache
involves
##29
replaced
michigan
warranty
configur
##omed
knock
undert
cub
regulation
legit
expectations
##ias
##agon
surve
neuro
empty
bunch
sel
marked
controlled
reaction
wound
prohib
pacific
##ua
consol
earned
explains
hole
layer
preparation
surprising
pap
wondering
reserv
crush
archive
plot
marine
##liers
initially
rated
rural
containing
founder
gang
conce
##ulf
talks
cryst
repeated
ward
##rier
unknown
ending
slots
1000
everybody
strang
developers
absor
fraud
##berry
risks
legislation
##anny
prayer
ct
hills
##ccer
adam
quart
intention
marks
universe
confirmed
cable
##elle
sharp
combat
sufficient
guaranteed
flying
##etes
bulgar
meetings
bin
##hy
drum
relating
split
unex
nearby
shops
partnership
implementation
butt
holidays
occurred
hem
enjoying
rising
##phones
connections
pulled
cp
dual
lyr
requested
mas
capture
broker
hence
##kins
exhaust
streets
grey
budd
penal
exists
recommendations
attended
poetry
honey
tired
##race
gig
blank
crafts
swed
tracking
merely
crowd
dvd
##ups
amounts
palest
soccer
francisco
##isms
dism
66
healing
crown
##ан
exter
##iac
languages
advertise
engagement
gambling
06
##eling
##imp
automatic
understood
##esth
meals
recre
02
enlisted
keys
stored
closely
brien
brothers
resulting
consulting
impressive
hamm
isol
##raid
string
necessarily
promotion
dw
##ensity
approval
cot
ss
tay
ceiling
illness
mrs
##onto
assigned
collaboration
toddler
##oul
seed
secondary
thai
consideration
acquire
compliance
vegas
cheese
bull
rely
stan
jar
applying
spray
bapt
copper
anymore
universal
watched
##whel
suffer
tagged
swimming
bat
##jack
##izer
baseball
graphic
deposit
##rid
spark
gran
keyword
premier
##holder
consistent
republican
##alf
toler
ont
faces
snap
fault
hes
filed
substit
59
lon
##ifi
engines
retrie
korea
57
ongoing
sher
invited
##lights
spoke
centers
sensor
blocks
portfol
structures
evalu
cs
stro
proven
fortun
tone
##36
enables
brilliant
stack
plain
parag
##oman
serves
blogging
ghost
pics
weapons
##don
fluid
scenes
vert
##pg
myth
logo
causing
cm
nas
inher
corrupt
operated
accordance
walked
##iated
##ов
sizes
##xture
careful
dipl
rice
sq
suppliers
equally
##bridge
suffering
mechanical
ros
remod
interactive
decade
directions
hopes
maintained
bottle
principal
henry
abstract
increasingly
hanging
afraid
tourism
observed
victory
saint
designers
obst
explanation
##pes
##amental
##inton
authentic
desired
##iana
protocol
employed
render
##crim
lifetime
52
seal
interv
dent
neut
handling
arrive
basketball
pounds
##aper
tox
provision
boot
errors
requests
5th
##stone
drain
##stein
relation
ak
wing
telephone
routine
cul
##nda
andrew
##ione
chest
unus
##ika
##theless
chose
checked
sensitive
achieved
democratic
##gb
##ulating
payday
elegant
giant
##aire
##reens
##agues
contribute
examine
ira
##irts
outlet
nevertheless
belief
upgrade
worship
shaped
pregnancy
ought
bass
hou
loud
equival
latter
##ulum
flower
roles
##va
align
insight
corp
surely
drawn
prevention
##bel
sections
##books
diseases
##ам
samples
radi
##ppy
pricing
globe
tissue
recognition
ott
aband
overwhel
attitude
##lessly
communicate
##gun
studying
representatives
analyt
broke
psychology
danville
circuit
absolute
##eler
##ours
offices
inspect
correctly
powder
85
boss
cc
##xual
entering
granted
dil
jenn
##fall
engaged
suggests
femin
scheduled
##bby
##uten
surge
fucking
##lines
lod
sponsored
mystery
sr
gray
##weight
skilled
matchmaking
depression
##ansas
insert
laid
##eller
##irect
reviewed
fundamental
toys
enabled
ceo
wisdom
opens
infant
ipad
oven
passeng
disclaim
orth
dropped
##itable
scores
moral
##jan
##iders
drama
availability
annivers
temple
jackson
oly
complicated
binary
pit
vel
##chool
spell
prescription
circle
toronto
wholesale
##nament
##chester
lyrics
ib
ts
proport
trim
meets
eligible
pier
wi
##һф
##grad
parad
nights
58
##mg
##rey
unt
##print
catalog
diabetes
##met
algor
arc
newly
setup
falling
tack
suic
patio
burning
hunt
odd
##esy
peak
structural
phenomen
chances
devot
inquir
shouldn
percentage
preparing
tum
brad
childhood
protest
addresses
characteristics
pleasant
algorith
bure
bomb
signature
copies
utility
wake
viewing
networking
trusted
injuries
cha
##ema
overview
##ertain
essentially
amongst
hallow
hide
##right
##rian
##ws
sum
guides
severe
georgia
##yard
##uls
##aug
claimed
thesis
weird
moist
painted
quantity
olymp
##cend
panels
promoting
williams
withdraw
stood
boxes
senate
chirop
stamp
mole
##iah
trem
flexible
##iot
themes
visible
memorial
rs
rav
##ji
##ipts
sams
gam
slo
tam
oral
sep
franch
curric
computers
inventory
tort
##urning
scope
singer
treatments
liberal
consolid
tang
packed
ordinary
carrying
blend
nude
pace
##cher
removal
pakistan
bc
belt
discovery
pilot
lind
sized
santa
aggr
chiropract
bern
hay
consumption
satisfaction
composition
downtown
wanting
indicate
barb
bars
pride
couples
iii
vanity
supreme
theater
spots
aged
collections
priority
manif
permit
waters
comedy
login
harder
newsletter
kat
lor
sd
stead
extraord
41
##rated
solo
traveling
##bits
roads
entitled
channels
satisfied
zip
deploy
dublin
delete
asset
##oster
##holders
bone
gosp
stake
homeown
lowest
disappear
lesbian
thir
debut
##gi
##acter
tx
leaf
banking
sail
##rection
junior
carpet
elementary
estimated
##igar
criter
kings
whit
myster
buck
strike
##athy
discip
talked
##lements
##ologist
anniversary
##oir
boards
desktop
cats
##sey
paragraph
tong
##igation
impression
somehow
behalf
furthermore
repairs
conventional
yah
##arr
remained
hearts
titles
castle
transactions
girlfriend
nurse
gap
##ли
consultant
proposal
bust
##papers
nobody
conclusion
jaw
##nc
##aly
##isa
sha
warming
occurs
platforms
coaching
mistake
km
organisation
participation
67
bills
##can
suite
diversity
investing
fool
##rog
tons
##ali
suspect
ted
##vy
salv
sarah
bish
##inn
clip
twist
##gging
photographer
involving
initiative
##bc
##ghan
appointed
##net
##asty
christians
associate
navy
alumin
mounted
closing
sauce
md
ariz
controls
rockford
horiz
ultra
distingu
buyer
kent
##rich
##ocra
jazz
halloween
cord
prol
desert
findings
larg
fake
##rent
equipped
aims
contro
actor
answered
thail
##inar
flooring
thinks
difficulty
##page
##ulpt
viet
cookie
likewise
universities
raising
consequences
desper
horror
administrative
spam
margin
substantial
##cco
adopted
locksmith
shoulder
operator
commerce
gaz
producer
contributions
portfolio
theor
requirement
staying
disney
120
substance
attempts
finishing
largely
cav
rib
##ador
gramm
admit
bankrupt
korean
##893
hood
packages
responses
exceptional
dynam
gi
##45
##iano
headed
strongly
danger
##secut
unexpected
toile
phones
whereas
specified
clubs
integration
chamber
tile
sees
seats
##icted
enemy
recyc
turk
assignment
stom
stages
believes
volt
1998
huggins
lib
##ho
##32
##eties
##lyn
hasn
screens
brid
mountains
maintaining
scratch
bureau
thailand
demands
##anned
eggs
ratio
certification
potentially
##mo
##ko
comic
##athan
nam
displ
subscription
acquired
dissert
##rics
##col
loyal
manip
somebody
##athers
smell
secrets
happiness
puts
rapidly
houston
gree
ali
alumn
intent
smoke
pointed
references
##orous
samsung
##ат
##udes
metab
exposed
equivalent
niger
##isition
##pection
adequ
regards
lanagan
##inos
##igs
prince
celebration
interviews
fiber
heading
principle
apartments
vegetables
islam
remarkable
dies
stable
publications
beds
virus
puzz
enforcement
sab
cad
##ystem
outs
returning
combine
electronics
##cop
##eld
stupid
##olis
hors
##uge
shit
discrim
riding
conversion
fabulous
instruments
fingers
nerv
##wa
exploring
friendship
anxiety
nit
reducing
reaching
controvers
jay
dragon
minds
alongside
discounts
##iler
perce
indu
province
listings
chron
elected
speakers
interaction
genuine
hookup
rarely
serial
developer
bands
sevent
satell
killing
economics
innoc
expansion
##acc
##umber
valent
thro
prin
lew
elections
gut
##iner
matth
explos
engineers
ron
superb
ranch
plumb
##auc
adds
plane
smoking
mall
##ateful
scream
screw
engaging
beneficial
gathering
volunteer
filling
xxx
swing
excellence
51
dump
cogn
distributed
diagram
mold
inex
##real
##eters
artific
authorized
venture
cryptoc
taylor
ware
abroad
invention
goldent
describes
municip
cotton
iraq
##kers
##rell
stir
alliance
deeply
boyfriend
subsequent
cer
mud
##urance
sculpt
servers
goldentabs
bron
personnel
capabilities
compensation
vulner
1997
entrance
unusual
pp
##hr
compact
costume
duration
##oral
carl
automob
greg
semi
divided
ontario
wick
##sen
##arn
highway
demonstrate
wolf
focuses
farmers
define
ownership
dh
outcome
privile
represented
worksheets
##16893
motorc
##1689344
##link
inject
orch
editing
creek
instantly
invite
parks
directors
stronger
functionality
ug
ell
awarded
utilize
6th
dirty
hits
##nect
##ye
traum
neighbour
chemistry
vinyl
##ocracy
loose
tel
ко
##ifer
equity
releases
paperback
arizona
##pn
prost
attending
formula
nativity
merc
damaged
##onia
worlds
maker
##vania
coat
tournament
encouraged
##wich
gotten
weren
700
mouse
pel
##tery
opposed
harry
temporary
1862
mistakes
jet
##laim
anton
marc
writes
classified
divine
convenience
affiliated
curriculum
tape
whis
##emed
dishes
pant
##anes
seasons
exterior
transpar
##ashed
empower
judgment
rolling
disclaimer
sought
##ani
##ensus
advantages
97
lun
##tes
gov
##ishment
##aping
batch
armed
profits
drinks
reveal
##ria
inspection
curious
faced
volunteers
imperial
##adel
1996
talented
eag
##essive
actors
##flow
lawyers
vect
##中特
finest
potato
alumni
jr
roots
investments
moth
arth
intro
##ologists
centuries
seller
horr
divorce
drag
exercises
contribution
sophistic
dj
weigh
usb
marsh
supplier
##ends
financing
descript
disabled
poster
assault
portra
periods
##front
gospel
68
loop
##mat
##mar
thirty
##usal
blogger
bubble
juris
7th
bun
jord
##ulin
accum
exclud
focusing
medicines
enhanced
islamic
victims
matching
austin
ker
array
recruit
fert
anonym
expense
campaigns
plumbing
sofa
paralle
hardly
77
##east
##ications
visa
courts
flavor
##ppers
intelligent
ger
grants
contractor
neighb
gained
anne
inval
cuts
repeat
weapon
##ito
chronic
governments
shoe
improvements
##ylvania
vacc
fence
20th
angry
ridge
sleeping
frequency
survive
nap
intense
meanwhile
fib
dose
cheaper
arrangement
fulfill
inches
##opher
blu
designing
dissertation
cryptocurr
punch
wins
##aver
##och
arrow
booking
introduce
soldiers
juice
rome
rog
outcomes
highlights
losses
eric
ml
##zer
##orse
dischar
terrible
pregnant
columbia
##ela
##owa
contr
formation
##bourne
dancing
stations
abund
holt
yahoo
moreover
objectives
contracts
emotion
penns
##wear
##abil
amate
muscles
ink
snack
##burgh
derived
stephen
98
hp
estimate
celebrity
indicates
targeted
dys
##omic
visits
colored
mask
pizz
##comm
infer
flour
singing
calm
sne
##bro
suck
hawai
ero
##verty
letting
sentence
clinic
extraordinary
criteria
gel
##iev
monet
lasting
officially
dealer
passionate
coupons
fleet
fits
mild
##mony
donald
practition
constitution
dave
##po
poverty
overcome
breaks
cooling
transmission
pron
studied
suffered
appreciated
survival
virtually
##min
##test
deeper
##inson
springs
philippines
69
tale
insights
syd
confused
gonna
bold
clark
##quest
laur
palm
citizen
cush
disag
pope
identification
loads
loaded
concentration
entrepreneurs
tooth
##ched
confer
cancel
angle
precious
pennsylvania
##erland
creativity
difficulties
pine
cameras
mixture
86
chairman
occasionally
mathematics
elder
##apse
refund
caps
1995
ryan
suppose
assert
frequent
##pat
##otive
brook
modified
calories
landing
dependent
cf
dict
lau
##心水
##orized
##osa
nose
emphasis
nervous
bt
##gments
##inely
disaster
avenue
passes
discussions
##ол
##35
artistic
organis
representation
masters
seeds
enorm
##000
tempor
##iami
emotions
ky
documentation
workshops
suicide
dash
governor
ensuring
bm
mineral
escort
alleged
##inery
screening
logic
thoroughly
##wart
engineer
greet
regulatory
situated
indoor
texts
bot
zo
compass
disrupt
matr
portable
78
##owed
emerging
wheels
bacter
symp
testim
associates
woods
delivering
laboratory
som
##bury
##hes
##isely
##agen
acceler
atlanta
stainless
##rs
##cers
##see
hadn
participating
artificial
##alt
##omin
chip
shelf
disorders
actress
blond
publicly
compatible
pir
ze
##days
abilities
worker
polish
signals
glory
humanity
bic
ka
rings
tied
##nie
settlement
cruise
tower
solely
prest
worn
depot
destroyed
##ti
forb
bug
hardc
stomach
88
bachel
lens
##essed
grateful
brian
admission
wishes
##iro
##erving
resid
##ordable
discipl
cooperation
miami
##cts
##agger
classical
colleagues
completion
tours
damages
walks
evaluate
laser
96
stitch
convey
tender
advised
ske
tempt
overseas
##raine
opposition
holder
badly
acr
hiv
##vas
scand
drives
verify
mutual
wilson
palestin
bankruptcy
sydney
gary
loos
mes
pas
tie
membr
elsewhere
surgical
atlantic
veterans
agriculture
##ilton
##anted
##acular
entity
##pool
##emp
reverse
##boy
ceremony
crystal
kelly
disorder
refers
uncertain
entertaining
seattle
spo
shortly
honestly
impressed
matthew
horm
ya
yield
##ит
defect
picking
rescue
##otted
ethnic
horses
##ifting
charity
subsid
agricultural
##card
uncom
##acious
processed
independence
wildlife
shadow
championship
trop
